/**
  ******************************************************************************
  * @file    network_data_params.c
  * @author  AST Embedded Analytics Research Platform
  * @date    Thu Sep 29 22:36:03 2022
  * @brief   AI Tool Automatic Code Generator for Embedded NN computing
  ******************************************************************************
  * Copyright (c) 2022 STMicroelectronics.
  * All rights reserved.
  *
  * This software is licensed under terms that can be found in the LICENSE file
  * in the root directory of this software component.
  * If no LICENSE file comes with this software, it is provided AS-IS.
  ******************************************************************************
  */

#include "network_data_params.h"


/**  Activations Section  ****************************************************/
ai_handle g_network_activations_table[1 + 2] = {
  AI_HANDLE_PTR(AI_MAGIC_MARKER),
  AI_HANDLE_PTR(NULL),
  AI_HANDLE_PTR(AI_MAGIC_MARKER),
};




/**  Weights Section  ********************************************************/
AI_ALIGNED(32)
const ai_u64 s_network_weights_array_u64[2078] = {
  0xbf935203bf9485ddU, 0xbf90ea4ebf921e29U, 0xbf8e829abf8fb674U, 0xbf8c1ae6bf8d4ec0U,
  0xbf89b331bf8ae70bU, 0xbf874b7dbf887f57U, 0xbf84e3c9bf8617a3U, 0xbf827c14bf83afeeU,
  0xbf801460bf81483aU, 0xbf7b5957bf7dc10bU, 0xbf7689eebf78f1a2U, 0xbf71ba85bf74223aU,
  0xbf6ceb1dbf6f52d1U, 0xbf67bccdbf6a8368U, 0xbf634c4bbf65b3ffU, 0xbf5f2142bf60e497U,
  0xbf59ad7abf5b8aeeU, 0xbf54242ebf5745c5U, 0xbf50f9c7bf52765cU, 0xbf4b3f3fbf4da6f4U,
  0xbf47769fbf48d78bU, 0xbf41a06ebf440822U, 0xbf3d1941bf3f38b9U, 0xbf38019cbf3a6951U,
  0xbf342d36bf3599e8U, 0xbf2e62cbbf30ca7fU, 0xbf2983a3bf2d1269U, 0xbf24c3f9bf272baeU,
  0xbf1ff491bf225c45U, 0xbf1a157ebf1d2932U, 0xbf1655bfbf18bd73U, 0xbf1262a7bf14541dU,
  0xbf0cbf6ebf0e3959U, 0xbf0805a4bf0a4f39U, 0xbf03181cbf068273U, 0xbefd521ebf00b068U,
  0xbef28eb0bef9e4ebU, 0xbeea6520beeca8f3U, 0xbee059a2bee49e4fU, 0xbed55b45bed9a015U,
  0xbeccb6b6bed0e8dfU, 0xbec3a9bdbec763acU, 0xbeb751bcbebc6b62U, 0xbeaf1729beb2af52U,
  0xbea7b3c1beab992eU, 0xbe9b511dbea19621U, 0xbe931712be96f36fU, 0xbe87c28dbe8e93d1U,
  0xbe7e8d11be84af92U, 0xbe69b495be757f82U, 0xbe5538aebe5ecc14U, 0xbe42541bbe4d28beU,
  0xbe2f904abe385425U, 0xbe1e3f60be26ed81U, 0xbe0ba13ebe152938U, 0xbdf11514be01ecf3U,
  0xbdc897e4bddce6ebU, 0xbda1135dbdb4e631U, 0xbd7a07e1bd8f1093U, 0xbd2aa75cbd54fc75U,
  0xbcbe8d73bd04edb2U, 0xbbaf44eebc6bc7d6U, 0x3c6e63a33b9f01a8U, 0x3d05f5cb3cc0c553U,
  0x3d56e3e33d321007U, 0x3d9115dd3d7beffdU, 0x3db6b1a03da29856U, 0x3ddd2cc93dca056cU,
  0x3e007d3d3deef358U, 0x3e1443dd3e0ae117U, 0x3e26714f3e1c6a0eU, 0x3e3a11243e3055f2U,
  0x3e4b99273e4294ebU, 0x3e5eb1783e55dd12U, 0x3e741c4b3e69e452U, 0x3e834a723e7bfc5bU,
  0x3e8e38d13e885e9eU, 0x3e97023f3e93fde5U, 0x3ea1629b3e9b1138U, 0x3eaaeaaa3ea58c73U,
  0x3eb37d513eaf5e73U, 0x3ebd62aa3eb8d845U, 0x3ec6f6893ec2f431U, 0x3ed041eb3ecc5cbbU,
  0x3eda63293ed4e020U, 0x3ee51ca53ee13d8cU, 0x3eed4ba33eea582dU, 0x3ef757c73ef2e1bfU,
  0x3f015b623efdc094U, 0x3f04cfa83f030fb1U, 0x3f0b5ffc3f0702baU, 0x3f0fc2363f0cae83U,
  0x3f146bc43f11c16fU, 0x3f1987b63f164d54U, 0x3f1d986a3f1b1cbdU, 0x3f2310973f2059ccU,
  0x3f2639ea3f23c4dfU, 0x3f2bf2ab3f298af7U, 0x3f30c2143f2f1335U, 0x3f34a8b23f3329c9U,
  0x3f3a60e63f37f931U, 0x3f3f82583f3d98a4U, 0x3f43ffb73f426fc7U, 0x3f48cf203f46676cU,
  0x3f4d9be83f4c5b08U, 0x3f53340d3f50063dU, 0x3f573d5a3f54a76bU, 0x3f5c0cc33f5909dcU,
  0x3f600a8d3f5de990U, 0x3f65ab943f6343e0U, 0x3f6a7afd3f681349U, 0x3f6f4a663f6cc5c1U,
  0x3f7419cf3f714ff1U, 0x3f78e9373f768183U, 0x3f7db8a03f7b50ecU, 0x3f8144043f80102aU,
  0x3f8336773f8277dfU, 0x3f86136d3f84df93U, 0x3f887b223f874747U, 0x3f8ae2d63f89aefcU,
  0x3f8d4a8a3f8c16b0U, 0x3f8fb23f3f8e7e65U, 0x3f9219f33f90e619U, 0x3f9481a73f934dcdU,
  0x3f96e95c3f95b582U, 0x3f9951103f988d3fU, 0x3f9bb8c53f9a84eaU, 0x3f9e20793f9cec9fU,
  0x746b6d8f8f9372a1U, 0xbbac738f7bb7757cU, 0x7c8967678c989db4U, 0x878a82866c876683U,
  0x818862886e796174U, 0x826a6c767b837971U, 0x667f9086766d8a74U, 0x7d7879718e85866bU,
  0x7c7684917c85878aU, 0x8b778a6b748f8e72U, 0x7b8e8e7b8c7c6770U, 0x858b7f6c876e748fU,
  0x7c80907e7d7d857cU, 0x8b70737679788c89U, 0x8b6a70878774928fU, 0x92878a6a89848a85U,
  0x91a2907c88847689U, 0x7e91876e82856976U, 0x9b858aa583849d94U, 0x729081858e648683U,
  0x8e77798968727486U, 0x6e8b77817f7e8779U, 0x74726c607577636fU, 0x7d7c668670746e86U,
  0x6e606f84676e8986U, 0x7985656f7bd65978U, 0x9e8e647c7a707f91U, 0x8a86757b91929f75U,
  0x8c867d726a678a8aU, 0x7c9291867179787cU, 0x7e787461667d6770U, 0x88868a7671666a7fU,
  0x807486896e64797cU, 0x8183bf497365656fU, 0x8b888a8a74817885U, 0x6f61746183657078U,
  0x7576896e7b7e6b68U, 0x938c8278736f7b82U, 0x72816e7a8c77697eU, 0x8380837d8177717fU,
  0x8a74796581747476U, 0x347e89708d707974U, 0x7b858989687f41ffU, 0x78726d847e877786U,
  0x736d8072898687a6U, 0x7f6a7d90795d6d7fU, 0x6f817c867f7f8190U, 0x8c7e728383697483U,
  0x886c736b68806b73U, 0x866a8c7a6b6a6479U, 0x7c7f806b816d7470U, 0x6a8385837b8b7384U,
  0x6c827f7471857069U, 0x88878a737f89878eU, 0x8c8c846e72688278U, 0x6e6a856d8d768c70U,
  0x8e86807887697b71U, 0x8c727b83808a7073U, 0x8eb74d728e6c8275U, 0x959180816e717e7cU,
  0x697b7e836d858195U, 0x75817c7b806d5b6bU, 0x82668679687a6a75U, 0x846b79907d716f78U,
  0x7e746a847d858e7aU, 0x859691876a708679U, 0x8c7e728475798c80U, 0x82748d796f678582U,
  0x8e838d787b677d85U, 0x6f7a848c838b7a72U, 0x8b8b82836e736d74U, 0x72727e8b6e708877U,
  0x7f8c747786687788U, 0x8a808e796d75728fU, 0x747a716a808b7c73U, 0x8575775f94906b79U,
  0x7e667e77738a716dU, 0x826f66838c7787a8U, 0x8ea09d8c8a907693U, 0x6e946d6a85718791U,
  0x7c7c668568706f6bU, 0x6a6d727576847881U, 0x68848a7d8b666570U, 0x756b797775848377U,
  0x8873838f82716d7dU, 0x868a727371706f8eU, 0x8684737a826f7089U, 0x858685847d858973U,
  0x727d818e75828787U, 0x807a7383807c798aU, 0x817a8c727d787573U, 0x756a707e7880848bU,
  0x6d6e828472788a6dU, 0x5e8d725b57736b65U, 0x7d9d755e795f6970U, 0x8b989ea49d999490U,
  0x7b6e846d77776e7cU, 0x7e748274637b7078U, 0x817a6c83777a7e77U, 0x7e7f817b88866a89U,
  0x697974826c68787eU, 0x88767477718a7a69U, 0x8d8c877d8968876cU, 0x6e798a758d708b89U,
  0x84737c86778e7b81U, 0x7983688a846e8379U, 0x8c7e736a7d778476U, 0x6d85898171898b8cU,
  0x6f7b7c6b78838d76U, 0x79826d947684966fU, 0x837c9199737e6c7dU, 0x5d6482665c77787eU,
  0x87777d798a6a676eU, 0x7668688285828986U, 0x7c92727981898894U, 0x8d7b6c7f798a8181U,
  0x8191856d777a7b92U, 0x7a83765bd45d6880U, 0x7f5e7f6579766c79U, 0x5b65a28c9c8a8798U,
  0x74867d68677f7071U, 0x768f6b6e678c7694U, 0x6d76748c6e877874U, 0x7f65816b77937e6dU,
  0x7d7d746a87726f8cU, 0x55a04f836b8c8070U, 0x7e838c746a787f6dU, 0x627189868e988d86U,
  0x717c83768a8d7281U, 0x9470666b6e846f73U, 0x7c89729184698a85U, 0x7369858881758672U,
  0x708d7f77788b7f73U, 0x788b74818f768c6dU, 0x857a89737e7b231fU, 0x584e436880a28c81U,
  0x6c847f9c7563876cU, 0x6d82747e6b8a7c74U, 0x7f6c8473767b6f8bU, 0x8b7b808b8d7d7b8eU,
  0x7d766c7872678f81U, 0x6e707370776d7e85U, 0x6a7979294c828685U, 0x98748e9f776b877dU,
  0x7d5e726889949c81U, 0x92927c816f918c89U, 0x76727e7680688188U, 0x8a61726479666b72U,
  0x727b8a75737a797fU, 0x8a71887176608163U, 0x765772758a787485U, 0x97778d886787895bU,
  0x6b7a6b869971626eU, 0x7589907c97769171U, 0x71878d816c867c8cU, 0x7771797774736e8aU,
  0x7884837063646b6cU, 0x6b846f7f80647477U, 0x716e766c68767b88U, 0x7190707f6e49b97fU,
  0x98afaa8ea57c6c79U, 0x71757489629b888fU, 0x88736d6f64917267U, 0x6a757c6d73716768U,
  0x70806a6d6b6d7a72U, 0x737892898f658a87U, 0x7b927d808782777aU, 0x8f716b6b7783768eU,
  0x7e8c7891736b6b6bU, 0x806d758588708677U, 0x766a8d86887a8472U, 0x7f7986747f867e76U,
  0x7478906c75916e71U, 0x7c6d878589797c6aU, 0x82728991878e7987U, 0x316f83896d6b7576U,
  0x87808d8076786bbeU, 0x7369969e7f7d9392U, 0x7f7385708884896cU, 0x667175667e886e67U,
  0x6f778f838c756d92U, 0x647e747b71878d71U, 0x618a6e758170826eU, 0x6f6b6f7d8969777dU,
  0x83756e7262007262U, 0x867eccb1aa868590U, 0x6e788c8678706886U, 0x626d6f7b7b868988U,
  0x6f7d677c747a8164U, 0x66687a6b91687272U, 0x7c76888371817b6dU, 0x6d6c8685798a8562U,
  0x6d20357c6f71726eU, 0x88a97f868c83727bU, 0x588554765f6882a0U, 0x6c6c5d6d626d6c59U,
  0x857c888081819093U, 0x808271816a897474U, 0x78837488897a716aU, 0x80797f8080708b7fU,
  0x8183727567797a87U, 0x87718d73727c6c87U, 0x827a7f8087698c6bU, 0x87896c786f847885U,
  0x777f758d6e818f7aU, 0x7d7b7f878c8f8a8bU, 0x69697a84868c8e88U, 0x6d7a6a8c73806c78U,
  0x7a7d6a8a7c71877aU, 0x69716f80706b7e89U, 0x7b817c69817a8f7fU, 0x7a84817580807388U,
  0x7b758686777d8b7bU, 0x878c8b7d847f8a76U, 0x85787670698a6c74U, 0x8e888e798a827674U,
  0x8b7d79766f707c70U, 0x818e77856b8a6d87U, 0x8a7c80767279776cU, 0x737e80868276707eU,
  0x8e776b8485798879U, 0x688a767b77706f6fU, 0x6e8d7888796c697cU, 0x80857483698b6b89U,
  0x8c87838a78858573U, 0x687b8983788f836dU, 0x8d8a6c7b737c918cU, 0x8e85887d84856a68U,
  0x7f7a7c686c8c8f80U, 0x76747c896a738e7dU, 0x7d767d8e72848a80U, 0x7e698890698c8e84U,
  0x747c8e7f7b858c69U, 0x8a6e8c856e688084U, 0x81959ec08e797b69U, 0x7969826877887074U,
  0x5f717f7a9287809fU, 0x9d7c7b9396798491U, 0x6e79797a70a29783U, 0x7e877f787b6c7686U,
  0x7f7082768472768fU, 0x8997818071837572U, 0xb377907580738c75U, 0x787b86706d7f7887U,
  0x587f7da78b828a85U, 0x749c7c69806b907fU, 0x7365667b967b9693U, 0x846f6d836a92898dU,
  0x816d847c68697365U, 0x71748d7a7974736aU, 0x628f7f787d797083U, 0x67766f922d4b957bU,
  0x71809799887e7775U, 0x9286a17a8e7c5e61U, 0x72716c6d7a71708aU, 0x927f82707c73726cU,
  0x8f7b7c788f89858fU, 0x878295817b759081U, 0x8a75707670818c7cU, 0x8a9b63707178888aU,
  0x7e727a8a897d7983U, 0x89826a79749c7fadU, 0x8d7b886f7463697eU, 0x89737d85676e6776U,
  0x888a687f93806f6cU, 0x79947477706d6b76U, 0x7e8678886d8d7673U, 0x728d6f7f6e707690U,
  0x74776f7a88737c8bU, 0x7f6f90738b788a82U, 0x838a83916a87727cU, 0x8e756d6a8c6e897dU,
  0x7c7c896a6a729189U, 0x6b906b82888f8792U, 0x8b737c6e716a8c90U, 0x88777a6f85827579U,
  0x796c8681847e916dU, 0x627f516c7c938e7eU, 0x888ca8976a777189U, 0x656d74677b6f7491U,
  0x7c8f8472758c776eU, 0x67787875787e739cU, 0x8188817d6a958092U, 0x837c82706f8f7467U,
  0x1b6e8f727e6e706aU, 0x88697a7b7385737aU, 0x6d5d896b7f8f637bU, 0x71718a80777a5c82U,
  0x647165647a827778U, 0x6a8474647d786488U, 0x797c897f8486848dU, 0x8a8f797470728369U,
  0x7d8f748b8b688b76U, 0x6c94777d884a528bU, 0x74787c84926b7572U, 0x7c705d6068628676U,
  0x77757c807e85876fU, 0x6e80718487888186U, 0x877b768a6f6d7a6bU, 0x8971846a6776818eU,
  0x9076849372768d84U, 0x8b6a798b7f748785U, 0x6c8c87907b79786aU, 0x8d8d7d908d6d7975U,
  0x6c8975696b726a89U, 0x7c8d7991787d7787U, 0x6c6c7987797c716fU, 0x6a8173747478797eU,
  0x747f7876738b8489U, 0x9a827b83847b898eU, 0x8d92826f7d7c82b9U, 0x7979937f7496828dU,
  0x8c77946e8b9c879bU, 0x8083867a60698261U, 0x7d7480877c8a936dU, 0x6f898575726d867eU,
  0x7c756a90708b6d7aU, 0x76736e7d87678474U, 0x8e6d7363513a6f77U, 0x3f6153616063887eU,
  0x757377827a866059U, 0x8678755b6b6b827aU, 0x886d897382916c6eU, 0x7984788e7b736c6bU,
  0x83867594808a9089U, 0x697d846f7c6c8779U, 0x8380857071708b7fU, 0xa887768c6c7e8b85U,
  0x8390a0ac7ca085b3U, 0x7a556f5a5b6c7586U, 0x7d71806f6765715eU, 0x6e777786816c8777U,
  0x70888a95887a7f6cU, 0x82777671757a797fU, 0x6584887c70717d77U, 0x8b7c838774654a31U,
  0x906f8b655e5e9286U, 0x81787f9a7b75848dU, 0x8678726b9270738dU, 0x826f88907d6f6b65U,
  0x787f6c7c79756484U, 0x7267737c737b6c77U, 0x718e79787c676177U, 0x6f6c77fa86687f88U,
  0x709f636a7f88697dU, 0x6e9f8192686b917cU, 0x7b8e7a948e709476U, 0x6a888b6b797b707aU,
  0x8b6f848470806c70U, 0x8986736e87756c79U, 0x756c809490776c8cU, 0x756c7a7387707989U,
  0x777b796a7172776dU, 0x866e77757d6a8180U, 0x6c876f808d887a69U, 0x6e8c686f767e757dU,
  0x78908c828a90758bU, 0x6a86817c8c8d7d82U, 0x6d837d6d8a7f7a68U, 0x6c7c82878b808489U,
  0x817f9c7f847b3b75U, 0x6f5c777974747c76U, 0x6e6569636b5f5987U, 0x7f7b8289918a8982U,
  0x81706f8361796e6bU, 0x7b756b798f93917fU, 0x7b70838a678c7e65U, 0x83926c6c88778a8dU,
  0x737a7470737a797bU, 0x6c7f8b6e86718474U, 0x8383728780796f75U, 0x677d6a6b8e717570U,
  0x6a818776677e8a7fU, 0x7f697f8587758e8fU, 0x71847c688e8e7288U, 0x788a768d7f6d8288U,
  0x40827a8f7874787cU, 0x937e837c7f898e96U, 0x6d99688e9fa28a9bU, 0x79717c5e73866373U,
  0x836e68696e82706bU, 0x808c737676788c85U, 0x866c8379906d7574U, 0x727d6f8d7d817c7fU,
  0x6779798f6a756587U, 0x8191876776778287U, 0x7881878c8f6d8c71U, 0x6c8a707e8d77837aU,
  0x846e6c79777f6b89U, 0x6f917f707177867eU, 0x7a818971788a8b6eU, 0x807287876d738075U,
  0x7f7b828f81707b8eU, 0x6b6d6f758c788476U, 0x748d8a826b836a6dU, 0x696e7c7e7970858fU,
  0x6b756a8d8b8b6b6eU, 0x87897c787f6c7078U, 0x6c7f8e74847c847fU, 0x817589788e698d7bU,
  0x7e828282916d8888U, 0x6a8b73837c898770U, 0x7871867c7b812575U, 0x8f8176747b7d856eU,
  0x656767805a5e7a79U, 0x847a8e7e81777581U, 0x6474698288657d84U, 0x708d698377877c82U,
  0x907f84727f6c7f89U, 0x776f7289867b7c7fU, 0x748e6c47748d7971U, 0x8f67747f8b8d7a68U,
  0x8a5e8572858c8088U, 0x718f918174808988U, 0x716f787e7990788cU, 0x8863627363716d7aU,
  0x698b875972816a6dU, 0x8878846d876a7b81U, 0x76737e757a807087U, 0x91897f6484847d84U,
  0x8b6c5e6d5895af64U, 0x8098a174a195869cU, 0x6f7c676b8c757d80U, 0x7a95896f7077866bU,
  0x917c8678737c8f77U, 0x8a888169848e7768U, 0x7b6e756476728881U, 0x6e8a75878199cc70U,
  0x7a84a188847d6388U, 0x739698918a98a188U, 0x7687909a8e6c9e97U, 0x88686b868167868dU,
  0x7d826c61666f7382U, 0x7e6e6b7293826287U, 0x7e6a77637667728aU, 0x7a6d737f83727270U,
  0x7c75737f7975818eU, 0x876c778d81818d82U, 0x89756c78837f7977U, 0x8c8a878c8e7b8e90U,
  0x678a6c878e8d847fU, 0x8c7d786b7b8a8669U, 0x6a6b6b877e888180U, 0xa97872817e8f8f6dU,
  0x8a717e77796a8782U, 0x7a948ea6d3e0948cU, 0x736380647d807e87U, 0x6e7f6488797f918dU,
  0x966c8a8e8a7b776cU, 0x8b6477747e6d7784U, 0x7182778092797e71U, 0x7f7f83677d7a8a6eU,
  0x756f7250ca838c73U, 0x9d5d57615c827d88U, 0x685d7c80877f6f96U, 0x86777777646f807dU,
  0x6f8384798a768069U, 0x7b8b74668e84877eU, 0x698e737b697e6f82U, 0x896d6e728b8b907eU,
  0x7372756f7e6f856cU, 0x808e8b886a838089U, 0x7c868873816a6d73U, 0x72798a8f677d8173U,
  0x7c686976907e6778U, 0x787f8588907b817aU, 0x6e827b77888b6c90U, 0x796c836c74688a8bU,
  0x807a72806f76867bU, 0x757a7e7285707287U, 0x8089827779788a70U, 0x81718369898d6e83U,
  0x7971866d79738476U, 0x777178858e7f858cU, 0x878c907e7e698682U, 0x897c68787b76778eU,
  0x6e7d718686867676U, 0x917d82996b777e7aU, 0x9078758d70838392U, 0x9274796f7e826b7dU,
  0x8f858f7082749386U, 0x8a716d6f8780867cU, 0x79848c93937e7476U, 0x746e7f8292718a7cU,
  0x77867e738a926d72U, 0x71a27d7b6c906c8eU, 0x9680788b71647089U, 0x895f5e72a0cccb9bU,
  0x7f6a8d8f61708b87U, 0x81728072868c7e6fU, 0x7e6e8c6d8f8e817dU, 0x7a8b7b88747b6b60U,
  0x797c857b8a88896cU, 0x7b8366757e6a8d81U, 0x8f878b677a59a184U, 0x758d72436e8a8a72U,
  0xa2a29d9393888d72U, 0x699c938880869698U, 0x72767d708a6b8d89U, 0x736a647d87786e7cU,
  0x6e778572806b6f77U, 0x6f6568696b827166U, 0x8d8848806f6f7f79U, 0xa7ca6889848c7083U,
  0x90ca53b1c15197deU, 0x687578776e8f838eU, 0x889369938088808bU, 0x766d73987e96736dU,
  0x86817b897e858e8bU, 0x829c7e938f6e6b87U, 0x73946a6d7c757e77U, 0x7d8a7972718a6c6cU,
  0x6888718889787379U, 0x716c78768a686f75U, 0x83848c8182767b88U, 0x778d8d89876f7584U,
  0x9069787c76808072U, 0x7d776f8e75808b73U, 0x907f6e80897c7f7fU, 0x787f8c776f847876U,
  0x8682826e907a7283U, 0x797785756d826d8fU, 0x71787e846c8d6e74U, 0x89777b8780716877U,
  0x7a7f7d8d8584696dU, 0x697c806b8a728581U, 0x837f897d7f908d77U, 0x828c3e778c898c8aU,
  0x9f968a6c6a8d7e8aU, 0x888663675d5590a6U, 0x7e6363786e78847dU, 0x8b8a88707187716dU,
  0x7178766f7e7a8888U, 0x726c7a697a867a85U, 0x89727c808d677a71U, 0x817077768e808369U,
  0x6f89908282767f85U, 0x7c82787283728878U, 0x6d8f789191766f71U, 0x79798f9091857c7aU,
  0x767b8b788086856dU, 0x7f74826c7a7c8a7cU, 0x8f8d846e807f778dU, 0x8376797a7970718cU,
  0x75886d807e6a6c6eU, 0x7f8a7578868f8d86U, 0x8a70827080856c84U, 0x707a71738a897a76U,
  0x8c68886a68758b77U, 0x8b8a6c7370908d82U, 0x6c6a888d70857a75U, 0x878d7488716a8283U,
  0x49bd84787b696d78U, 0x7f717b75795f7968U, 0xa796909a857d887dU, 0x7d7b8393818c989dU,
  0x6e7568758b687c74U, 0x6873856974776f7dU, 0x736e6c7f846f7080U, 0x747c8b6f8575666eU,
  0x7a6e7f79867b748bU, 0x7585777b5bb4786bU, 0x929c9c77937e6e82U, 0x6d8483755f788d8aU,
  0x8984748377747271U, 0x8582826a757f736fU, 0x7f887491847e7391U, 0x8a686f7d6e887c6eU,
  0x738e7b8785749284U, 0x8a7484687973757cU, 0x876e6e896a838b71U, 0x8e7683758c8f7c8fU,
  0x8483886c87747b68U, 0x80846f7679797370U, 0x8e8b6b828e738d8bU, 0x82818b6c6f907072U,
  0x7b7b767c706b8a6aU, 0xc771728387718e8cU, 0x8a7b6d8c8691767cU, 0x8d9590a58692b084U,
  0x636a646063614f7dU, 0x7c7c827f767c646fU, 0x6f7b846a8a76717bU, 0x8675776a917a858cU,
  0x7c91808773867775U, 0x727284726675787eU, 0x826673905c898e81U, 0x536347896c876a7cU,
  0xa5989d7c88688776U, 0x6f6f8d7a87919e98U, 0x8073837f7b856a77U, 0x6e82746e857a7a85U,
  0x747a7c8b817f6d72U, 0x796b8d788087788dU, 0x6e8b7877847b8384U, 0x907b698c746f808bU,
  0x6e738c708f837e69U, 0x816f8a6d70886c77U, 0x71898f808a807e86U, 0x7c8e858c8a766a6eU,
  0x7574868b8e72807fU, 0x7e8c7e778e8c7985U, 0x8275837d807d816aU, 0x6b8c8f7b6d8b827cU,
  0x928ab5869170888aU, 0x91778f79647a6d8aU, 0x7a9697969a8a737cU, 0x7083897c88767c83U,
  0x806a6b6984746b72U, 0x6d726a88637a776eU, 0x6b67757f75798090U, 0x75827283896e7c73U,
  0x7a6b797c7788868eU, 0x698b796f7a768469U, 0x6f7c89877e6f7f6aU, 0x7281697f87866b8fU,
  0x72697790738c6b86U, 0x7a887b918a83846eU, 0x6a8a7d72708b8b6cU, 0x7d72818a70748a71U,
  0x8a6a6d8973837376U, 0x6c85767c6d768a85U, 0x708273808c757c6cU, 0x828f6a828983897eU,
  0x6b80877e6e7f7881U, 0x8e7c6f7e6d898472U, 0x71738f8d7d748b72U, 0x907782857c716b7aU,
  0x877d6b8876798272U, 0x716974798274797bU, 0x8a82737b7486716dU, 0x708e80897b6e8e8bU,
  0x86678c87686a8786U, 0x6d80837c7f688383U, 0x82886f68678c758eU, 0x8889748577826a8dU,
  0x6e6053b48e6f7f8eU, 0xb87a98726f8d8f8fU, 0x949698669d868ea9U, 0x7085738a6f66807aU,
  0x826a80647e71726cU, 0x726a867a6e838483U, 0x7e7683738668737cU, 0x82727a6c727b6d8cU,
  0x6a7f71666b7a736aU, 0x8b6b80876b717570U, 0x68886a798b838e7eU, 0x90907f7671878c72U,
  0x697373787e8f8f7bU, 0x8d6b8c8a736b8a73U, 0x8484838c78677b74U, 0x7d8a8775896b746dU,
  0x898c8f6c7e698f6aU, 0x81916c797690868aU, 0x6f6d6a748775817fU, 0x848f7a73746b896dU,
  0x6a8d70776e71868fU, 0x7377898a7d856e7bU, 0x75767282727f897bU, 0x757e718b8d6e9076U,
  0x84768c768b808d69U, 0x6ba6d88f80896c7aU, 0x4f637a8587636780U, 0x7568977073845f57U,
  0x8691968f93859199U, 0x71867e92706c696dU, 0x7f718d6e6e776a6dU, 0x87748a67706d6f85U,
  0x8386819086887a6eU, 0x7c8173857d707582U, 0x7b83767170828077U, 0x85776a707a7f806dU,
  0x7977837a907d8a7aU, 0x8e8e8783898a6f8fU, 0x747b847a908f9170U, 0x8c818f866d7e718eU,
  0x7488877c7c698e80U, 0x9083816f8384876fU, 0x8a8a73b93f797f8cU, 0x7068897269716c84U,
  0x66685a646475755fU, 0x6e81716a7d737b5cU, 0x72706589776f7380U, 0x7876778a7f8a6964U,
  0x8985809693878e8aU, 0x838b706e7f767d94U, 0xc4b487936d658f6fU, 0x6374706c6e756b83U,
  0x93968185a57ea679U, 0x64706a8d628186acU, 0x8286867077868382U, 0x8d837d8a79678472U,
  0x7e6c7d799174858bU, 0x6e75808389717c71U, 0x6e7e7e6e697d8a8cU, 0x78807a887c8c7f6aU,
  0x7f83716f6a896d7dU, 0x816c807b88768788U, 0x8f8072896e72787dU, 0x757470798e868e6aU,
  0x868969736a857f71U, 0x7f706e6c8a8e8972U, 0x8e827c8e89889179U, 0x7f6397796d81716dU,
  0x76787f6b74727775U, 0x809891998c8d798bU, 0x83888a98957e9e7cU, 0x6b87716f7d8c7777U,
  0x827276688a72866eU, 0x6990716779776a6aU, 0x766e6c6d6669617aU, 0xa3827d867f767474U,
  0x7472767c6b8b8944U, 0x877c8357896e866cU, 0x80728686898a7078U, 0x7366746f88828e94U,
  0x94668f7a83918d69U, 0x87706c8b73919082U, 0x7e80826e6f6e7c6eU, 0x85756c6a89919873U,
  0x78766f8eab608270U, 0x56708f7584757475U, 0x8485884d6a726654U, 0x8c9791a899859185U,
  0x81728e95878e9289U, 0x6a9470808d6f7a8bU, 0x7e876e876c7d7c6dU, 0x8b8687798b727e75U,
  0x716c6b727a746e7bU, 0x847c6f837e8a7976U, 0x6d8e708b83706a70U, 0x8f8a6d817a787b87U,
  0x88706b8174898183U, 0x6a826e708e687f7dU, 0x6979856c6976897fU, 0x7888828a82778c89U,
  0x68758890738a6f81U, 0x80897b737b676c88U, 0x796e678d81768d76U, 0x858d846e6d7d7886U,
  0x6f72728571828f89U, 0x8f84848a8a79777bU, 0x858a8b70767c8e79U, 0x887c7c887b856c86U,
  0x8e826b8b8d867590U, 0x816b817b7275776dU, 0xb87ed099838a7682U, 0x7f6d6a896785a067U,
  0x69866368838b7b88U, 0x807c776d68866d72U, 0x8d757f857e7a8386U, 0x7e83767c6c7b8077U,
  0x79828c7f68787981U, 0x9c4b70846b8d716fU, 0x71827c8e73737f7aU, 0x896b9d7d5e7f9796U,
  0x607b565c6f618c78U, 0x758c886e7c746a76U, 0x88778d8c6e6f717eU, 0x7d938a7670738b73U,
  0x6b85857d89818b67U, 0x70817d6a966e7982U, 0x898882864ba6536cU, 0x7f979385a476666dU,
  0x81748b7e667c9976U, 0x806b726977838c6cU, 0x696e867d8a768980U, 0x7a6c83788584737bU,
  0x7f71836a6485777cU, 0x6d78706e8176797dU, 0x778a7486876b636cU, 0x7a8d8a7b91737967U,
  0x696c6e677b726069U, 0x829d918c70748377U, 0x6f7e8e758b8a9590U, 0x7d8d8f6b7d8f717bU,
  0x8477877e85728591U, 0x708f807b82837a8cU, 0xd195766e7b726d79U, 0x716e89706488778bU,
  0xa593a1af887f888cU, 0x6c6b85947a918995U, 0x6c7874757967706cU, 0x866d777f7b729987U,
  0x8a7986767e7d6f67U, 0x7c71857f79737e70U, 0x74867e7c706b8884U, 0x7d87707d74857c66U,
  0x69688b787d74758cU, 0x8c6e718770747b76U, 0x7f7f7384897b6a75U, 0x7e7e817e848e867cU,
  0x6876837f818e6988U, 0x836d88886d798c8fU, 0x7967806b79857579U, 0x8c6b7a857a7e8889U,
  0xc47f7990897d8b90U, 0xcb73a2d9529be9a4U, 0x7d5e696da6839f93U, 0x8572887d736f7b5dU,
  0x7d7f938b938e818cU, 0x8d899077817c6e9cU, 0x8068878b93879095U, 0x7b86867f8d7c9181U,
  0x83808d87786f788aU, 0x978a9a8581828585U, 0x8e817b8287727b89U, 0x7c667f908f916f86U,
  0x8a82857565836675U, 0x687c666a86698375U, 0x7d7a8c826b757887U, 0x896d876b6f667c72U,
  0x8d8c787d8d8c7671U, 0x8d6b8f6d8f7f6986U, 0x7d878f6e8a698580U, 0x82778d7073838672U,
  0x706c8b7488797184U, 0x828b7b7c6987776fU, 0x8e90866b7c776c71U, 0x8a87757f7a8b7688U,
  0x739480727480718cU, 0x809088847b6f7876U, 0x84697791898e8289U, 0x6e928f8488768286U,
  0x8974856f7f90906eU, 0x8d878884746c8471U, 0x8d7b6a8f69847381U, 0x758f89727e827571U,
  0x6b87797f7e757f79U, 0x8461938590889889U, 0x7783513f43596e75U, 0x8a8b948d919d739cU,
  0x748a917c847a8588U, 0x677075677e7a6f98U, 0x868d8a908c838f7dU, 0x917c778d8573817dU,
  0x8d8a72888c627a88U, 0x3ecd2150867f7878U, 0xbbaf4167bcb2f354U, 0xbed562e4bdf97b35U,
  0xbed0349bU, 0xbeea83c9U, 0x3de163b1U, 0xbbd152463e0cdd41U,
  0xbe560e22be8b02e3U, 0xbe540121be05ea82U, 0xbdca64bebdc74024U, 0xbc9339d33e700b07U,
  0xbf30841fbf0bab5eU, 0xbe2366ebU, 0x0U, 0x3e1e6d03bbf72386U,
  0x3c7c44ed3da1410fU, 0xbc74ad77beeb63d5U, 0x3e3409a1be0405acU, 0xbc39363fbe8223b5U,
  0x3e207761bdce2a53U, 0xbd2cee96be69d216U, 0xbb192b09be1761b9U, 0xbe82f342U,
  0xbcb64cd4befaba84U, 0x3d13d497bc25296aU, 0x3e0acdb93e28756bU, 0x3eb3b401U,
  0x3d09d9443ea1fd69U, 0x0U, 0x3e6e0d18bcaf2ccdU, 0xbbd6d6d83db612ecU,
  0xbc0a7538U, 0xbcaf6516bf02f0c2U, 0x3ebce6b43c9657ebU, 0xbcad6a55U,
  0x3ebe83e03ed61114U, 0xbc8f11bf00000000U, 0xbc55b426U, 0x3ccba06e00000000U,
  0xbbd7161800000000U, 0xbc7320433ec79271U, 0x3c0fc3cbbe650cf9U, 0x3cd6cdc7bc07eebaU,
  0x3dfc1aba3ed5459bU, 0xbb4c26c9U, 0xbe539d8d3e9e373eU, 0xbd3f77dabe47e8b0U,
  0x3e88f046U, 0x3d34d48abc0be616U, 0x3d0ca06400000000U, 0xbf866beebd518fa4U,
  0xbf8462fcbf856775U, 0xbf825a0bbf835e84U, 0xbf805119bf815592U, 0xbf7ccfa7bf7e9941U,
  0xbf787e6dbf7a875eU, 0xbf74e220bf75e871U, 0xbf705aa7bf726398U, 0xbf6c48c4bf6e51b5U,
  0xbf6836e1bf6ab60aU, 0xbf6435bfbf662defU, 0xbf60131bbf621c0cU, 0xbf5c0138bf5e0a29U,
  0xbf57ef55bf59f846U, 0xbf53dd72bf55e663U, 0xbf4fcb8fbf51d480U, 0xbf4b3d1dbf4dc29dU,
  0xbf47a7c9bf49b0baU, 0xbf43c741bf46293aU, 0xbf3f8402bf418cf4U, 0xbf3b721fbf3d870cU,
  0xbf379879bf39b453U, 0xbf334e59bf34d022U, 0xbf2ea0ffbf3119fbU, 0xbf2bee22bf2c5ec1U,
  0xbf271c46bf29865bU, 0xbf2306cdbf251811U, 0xbf1ef4eabf208701U, 0xbf1a9bc1bf1c4e08U,
  0xbf175b12bf1938ecU, 0xbf11bf57bf1496a7U, 0xbf0e9dfcbf1164f0U, 0xbf0a9895bf0ca46dU,
  0xbf06364fbf07d5b2U, 0xbf035620bf04cf96U, 0xbefc4ab2bf00a178U, 0xbef4f7afbef88d7dU,
  0xbeebf83ebeef3acfU, 0xbee46e47bee88256U, 0xbedbb368bee14f7bU, 0xbed43839bed7d765U,
  0xbecce162bed0db28U, 0xbec32de9bec927f8U, 0xbebbb7e5bec03e43U, 0xbeb2cde6beb760f5U,
  0xbeab8451beaf226aU, 0xbea388e3bea7ac80U, 0xbe9cc12ebe9fc6f0U, 0xbe932144be988c94U,
  0xbe8a6b5bbe8e9e44U, 0xbe823704be85ddfbU, 0xbe765c96be7c38bcU, 0xbe64a742be6d5675U,
  0xbe53d076be5bdf40U, 0xbe446e3fbe4a6357U, 0xbe35bf39be3d3ef5U, 0xbe25ef7cbe2e364bU,
  0xbe148761be1cecfeU, 0xbe041e5dbe0c1d63U, 0xbde6b028bdf6b80fU, 0xbdc4ad43bdd46997U,
  0xbda4f073bdb5dd64U, 0xbd82adfbbd93d2bcU, 0xbd44c586bd651a0eU, 0xbd02f6f2bd26094dU,
  0xbc85b8f2bcc5a32aU, 0xb9a82460bc0bba3fU, 0x3c7c3af23bd5d889U, 0x3cfbd2573cbce5d9U,
  0x3d3db9a03d1e211cU, 0x3d81e6733d60eacfU, 0x3da2043d3d929bd3U, 0x3dc0b2c83db00d0aU,
  0x3de2af0b3dd24f91U, 0x3e00720a3df17fe6U, 0x3e120cef3e08bdd3U, 0x3e22aee03e1a996aU,
  0x3e31a27d3e2a7a30U, 0x3e4000d53e3876f8U, 0x3e51f90e3e485e26U, 0x3e60f4d13e5abbf7U,
  0x3e72bbd73e6a7d7bU, 0x3e81ea6f3e7b2a7aU, 0x3e896e3e3e8630caU, 0x3e91b84b3e8c4aabU,
  0x3e9a08013e96029fU, 0x3ea28da63e9e6d63U, 0x3eaa89803ea6b529U, 0x3eb2482f3eae5a11U,
  0x3ebcbbfd3eb71693U, 0x3ec287ad3ebf1626U, 0x3ecb8a803ec70d94U, 0x3ed2f2a33eced21fU,
  0x3edafbd43ed81121U, 0x3ee446603edf2e34U, 0x3eeb5f143ee84e70U, 0x3ef3ba8d3eedd9f3U,
  0x3efbb02b3ef7cc70U, 0x3f01c2573eff432eU, 0x3f06f0ed3f032d7dU, 0x3f0a24d33f081be1U,
  0x3f0e21373f0bfc60U, 0x3f1248993f103fa7U, 0x3f165a7c3f14b64dU, 0x3f1a50253f18636dU,
  0x3f1e7e423f1c2b57U, 0x3f21a6453f208733U, 0x3f26a2083f249916U, 0x3f2ab3eb3f28aaf9U,
  0x3f2ec5ce3f2d2a0eU, 0x3f3362813f30cec0U, 0x3f36e9943f34e0a3U, 0x3f3afb773f38f286U,
  0x3f3f0d5a3f3d0469U, 0x3f431f3d3f41164cU, 0x3f4731203f45282fU, 0x3f4b43033f493a12U,
  0x3f4f54e63f4d4bf5U, 0x3f5366c93f515dd8U, 0x3f5778ac3f556fbbU, 0x3f5b8a8f3f59819eU,
  0x3f5f9c723f5e14c1U, 0x3f63ae553f61a564U, 0x3f67c0383f65b747U, 0x3f6bd21b3f69c92aU,
  0x3f6fe3fe3f6ddb0dU, 0x3f73f5e13f71ecf0U, 0x3f7807c43f75fed3U, 0x807e76743f7a10b6U,
  0x786f927d95777c9dU, 0x8f90956195836794U, 0x998a6d9348708171U, 0x8588648f97889c98U,
  0x9a7e809ea26c9877U, 0x8a857c8597968577U, 0x8373899871997494U, 0xb0887f6c6a7c9172U,
  0x7d928672907f957bU, 0x6a9c847aa4878376U, 0x8789a19588979291U, 0x46a075496e8186a3U,
  0x9575ad8f70818871U, 0x9051979cc299a66dU, 0xaf9f878ca680988fU, 0x7e88ae7592949279U,
  0x7464876c8b9b768fU, 0x6d7ea08da19c6d7bU, 0x7877777a748a6c85U, 0x9e7999aa8b86a49bU,
  0x8c76969b836e7481U, 0x709c8e87938b7b92U, 0x9670715c797f838aU, 0xa57182969b7b8b7cU,
  0x6b45857b937c869cU, 0x8677539390934290U, 0x4e9e6d9c7aaaaa75U, 0x847884847f859180U,
  0x87989d84719f557bU, 0x9984828a7c938497U, 0x817371728c778880U, 0x958ea2997899808cU,
  0x724d9495977b928bU, 0x757995826ca55b87U, 0x878e9a978b6c7338U, 0x866961727c7ba36fU,
  0x84968289996c6583U, 0x728e957ba0988e67U, 0xa07aa685787b6770U, 0x697e927875769e98U,
  0x8b8e7d6f9c81749bU, 0x9c9c6b8a837d9f6eU, 0x9575836e7e848997U, 0x939eb07568828a7bU,
  0x82707f78a8a4707fU, 0x977c9e6d9a809789U, 0x897180997f877369U, 0x853977a0756e7071U,
  0x7b7c908a988f8999U, 0x93849b8e408a9a7bU, 0x82916b8e8e957ba4U, 0x8072967d8b9f958cU,
  0x8b7684729d8d9673U, 0xa77e83719e609a7dU, 0x9d998a8992887a95U, 0x726c6f9a6f986e95U,
  0x5d658176828e9676U, 0x5e86827c9b739194U, 0x729392776e81467dU, 0x81a69e7d7a8b8c7fU,
  0x65a4697193837c68U, 0xa98d9b8ea17874a0U, 0x889ab38c93707f7bU, 0x826c8397cd74b294U,
  0x485f72a1708d8661U, 0x723293b7799d887cU, 0x54876e9395737f7fU, 0x8e8a6d7a8c79797bU,
  0x898685759da0a382U, 0x6e7f76858f8b9281U, 0x738b7e8f7397697cU, 0xa18f71826f709091U,
  0x7f9296867b8f7899U, 0x8a988f6d57529790U, 0x7b6d7fbc71907655U, 0xaa8c9d888a707fa8U,
  0x97937b757c80a173U, 0x64837a72646b6a71U, 0x8f70538488856fa1U, 0x8f856a8d9c8c996fU,
  0x82a9928e948ea371U, 0x72758f858c858673U, 0x86748a768291898aU, 0x728b9ea299805496U,
  0x958aa87c87767d77U, 0x9d9aad7c7f7aa08eU, 0x7979888f9f7c8990U, 0x7c88c2a57d95807cU,
  0x966e8593a7889187U, 0x8f86857d75759f9dU, 0x757d798b977d7678U, 0x7d7a6e958b71798fU,
  0x96999387716eaa8fU, 0x73729e8f9c70859dU, 0x8a7a7c5e9c917792U, 0x9a98988e95926f97U,
  0x708472828c939c85U, 0x92a68b8999827b93U, 0x606c9884b290b07bU, 0x887f836162779b7aU,
  0xb1898b6f7b9a5c74U, 0x6599916c6d6f7178U, 0x958c7d7240979573U, 0x7b8f8b72817599b0U,
  0x978f75a463766297U, 0x89a7908f97788e80U, 0xa6a4799c7986a58eU, 0x716a8b77896d8167U,
  0x946e90a38b75a17eU, 0x8e757f80946b9084U, 0x927d82757cb78c98U, 0x77828d627c9b6395U,
  0x7e847d8b898a9470U, 0x655f78736b908293U, 0x9ca993899f77967bU, 0xa3638e8285726f6eU,
  0x9b7698798c958793U, 0x766e9c9372879182U, 0x6e689a7b8b7c8c96U, 0x8571809064738f8dU,
  0x8c82887c729c6f92U, 0x608b798591897882U, 0x8e766e9490866d95U, 0x899687a12b7a478eU,
  0x6c787e886f726c68U, 0x8b8692999b7bc980U, 0x879889828c756e7bU, 0x98757a908c969d7cU,
  0x9a9e868d92768b96U, 0x88737f9f727a7f76U, 0x918a967379708475U, 0xa0a496848891aa97U,
  0x956d9d70a6997f58U, 0x9d8f7a7d7e759974U, 0x7e7877707a989796U, 0x8672b38d7f8e8d96U,
  0x59788a7b7b7f8e88U, 0x9187a7a37f69938bU, 0x9b819f8c9d7c888bU, 0x757a917e778d925cU,
  0x98809b727a8e866dU, 0x8a8b547f9d8ea079U, 0x6b99a1848a907971U, 0x6f848f887d715b8fU,
  0x83966c738175956cU, 0x7c97547f78879d86U, 0x827e836d77906b84U, 0x83868f7b8e8d9a72U,
  0x4f6c9f8dbb71a382U, 0x4362909a77987576U, 0x828572949a6e7d74U, 0x928679959a7b886eU,
  0x878a788b9f707995U, 0x758374867c9b7a70U, 0x7d866088798f7a96U, 0x96818a9c8076768fU,
  0x708c966c6ba17e81U, 0x9279758c976c72b4U, 0x9b726f8e90768b9cU, 0x848c837c9287859eU,
  0xa28a827193739d83U, 0x8f7c9b6cb77f8f8cU, 0xad87589b8e8e9446U, 0x7d997c799477777fU,
  0xba9ba1827a918683U, 0x98b8966f9a6f7c9cU, 0x7c918c9b7f7a687cU, 0x7a77a176838ca69bU,
  0x94664d7391957b98U, 0x8d77859758736d9aU, 0x755a798481757278U, 0x83748b9d7571877aU,
  0x8c7166858a748f86U, 0x938d808d5194707dU, 0xa6897b8456877897U, 0x53949284856d859aU,
  0xa4798da19145879cU, 0x838390919d597d8cU, 0x7050819792678b84U, 0x69946f7a69b8898cU,
  0xa97914688179676eU, 0xaf839a7f8e706890U, 0x6e566f977c72895aU, 0x8b7479859ca52f7eU,
  0x8e84848251727430U, 0x884c7a9885b08938U, 0xb48c6b9d659b8c75U, 0x95977f8664a88399U,
  0x8c6671885388878aU, 0xff7b7880ab2e6796U, 0x74a19d947f9c8389U, 0x93488f78668a826eU,
  0x7c8a78797a72a85fU, 0x98899c7376746986U, 0x99777c8077a4727dU, 0x7990b0719aa77a6dU,
  0x77768ba898787290U, 0x898c86839a856a91U, 0x6f6d988fc48cb790U, 0x8d96867c7b968d6aU,
  0xa3739e768b77b19aU, 0x6c9396a689829b7cU, 0x9795857a85789973U, 0x8c90957c98938898U,
  0x9970918e75786b82U, 0x8d917f83817c7788U, 0x9790776b9a8f828dU, 0x9970977b738d6d6cU,
  0x768f72716e959f87U, 0x9b82898e7a9c7f9fU, 0x947fa89773a29782U, 0x75978b696d709299U,
  0x7a9289937a887ea3U, 0x7b82798f97818581U, 0xad859b997183648bU, 0x8591939c6e72738cU,
  0x82848c9097758181U, 0x906f83879e94ad61U, 0x87909478a56d5e91U, 0x6e8389aab7827e8dU,
  0x6d9b8a8995598a81U, 0x8a97877474988c8bU, 0x9b6d706d73859272U, 0x8d93838ba9866b72U,
  0x749d928a907f7587U, 0xbd9c999b7c739480U, 0x6d4d487fa211596bU, 0x6e73809b95526a7aU,
  0x4c8286937975a887U, 0x8b95b6467d97926fU, 0xaeab49696e8e8081U, 0x996c7581799a8b8fU,
  0xbc6f8c7a7898798bU, 0x74879c786f8bbf9cU, 0x6da16991b9839cb6U, 0x80715d887d8b9b5eU,
  0x9bba98798f708081U, 0x8a706980978b95a5U, 0x887bad8ca47c767cU, 0xb69c927a7e896fb1U,
  0x7d57888471747878U, 0x7e798f7175778695U, 0x80708e8b8087626aU, 0x7761926e487a7c8cU,
  0xac976e7b4769856cU, 0x91527b958e7c828bU, 0x7e79866388789776U, 0x8694599291749872U,
  0x7b796b8391808e80U, 0x86a3878f928e6e74U, 0x7897866e828c9d77U, 0x71a176868a8d9270U,
  0x9692978e6d8b9e76U, 0x797f897f7b8a8772U, 0x648694839f898b90U, 0x8d83927b9075a47eU,
  0x9ea17e7571946e7bU, 0xa8738c7a79756d5cU, 0x97767d66718da099U, 0x7a7882909485955cU,
  0x9e9fa37c967d859cU, 0x907a95575c779278U, 0x74949381917d7a78U, 0x6c756f7a85879590U,
  0x6e9a74717a7b6f99U, 0x9080806e7e917692U, 0x717f6b6d7c8a7a97U, 0x976f80968c6b706eU,
  0x958486786c897d7eU, 0x95819d927e717481U, 0x6b689874837c937aU, 0x9976936e9c777e76U,
  0x6c7c927c87747976U, 0x9d789566828c9d9bU, 0x98a17b827c7b8c87U, 0x5f8b768396885987U,
  0x8e7090896f77678aU, 0x9a879685908d879bU, 0x96706b90967d7b96U, 0x926f9591a4989d96U,
  0x8f787886787c9b8bU, 0x618c7a8976437b6cU, 0x7674908b9a8a8293U, 0x8f776d7f837d4b6cU,
  0x8c83928d61949789U, 0x8b796f7c96909097U, 0x71818f82ae898f91U, 0x9d7a9ea1968e986aU,
  0x7060948a66767474U, 0x84b59d798d679683U, 0x99b065906f936d7cU, 0x8d6a888b9970907cU,
  0x7b86a881959a7a75U, 0x79436b886a7c719eU, 0x8d758390776c8d90U, 0x9a7f757950799386U,
  0x359e848a796e84a8U, 0x7a816284977e759cU, 0x928870b0a1846e7cU, 0x695c84649c759774U,
  0x89917f7470774690U, 0x7c648ea9746e856dU, 0x8d7e82769c7f846dU, 0x9aa18d778baaa182U,
  0x978152926eac5c78U, 0x5156a0a8969a8475U, 0x78629f6c91706a8fU, 0x787a8b8b906e788aU,
  0x8e7a787473a36489U, 0x74647f9a746f9178U, 0x717d458c9c5b8478U, 0xad93868389786b9fU,
  0x8694457590827f5cU, 0x965e77765b798f8eU, 0x2db17675c2739480U, 0x849394918078897aU,
  0x91888a7e9a93b166U, 0x8e8f75747b7e708cU, 0x834084776c908b84U, 0x997685779e7e8899U,
  0x87939e88a0b57091U, 0xa3949c9e818b9d8fU, 0x8eb5859a85465187U, 0x7685828b96884b8fU,
  0x7a688f87af999776U, 0x726f92938e936c6eU, 0x7692769381887d87U, 0x717b7a7372857d8aU,
  0x8d7f86966e7e7e76U, 0x7e8f9a8b6e897a6bU, 0x876d787d89756c86U, 0x937594739d8b7293U,
  0x8c79807a889a8c8aU, 0x8e859380958b8887U, 0x9a897f70676c6e8bU, 0x776f8f7685987488U,
  0x86768284957f6c6dU, 0x8c917196928c7171U, 0x748c7e8772856977U, 0xb98fa375749191a2U,
  0x945e8f7a99888581U, 0x749aa18f796e8a88U, 0x8f9c958f7f72aa68U, 0x9a64a66f7f6c626cU,
  0x966e6e6d8e8c7a70U, 0x7282918250817e9bU, 0x927f9a83927a817fU, 0x986f617f707f7e95U,
  0x739d8d77908c5075U, 0xb09f6f8c78986e75U, 0x598663868a807a8aU, 0x72686f337ea6927eU,
  0x708683770c79957eU, 0x6e69a68293867e8eU, 0x7d88ab559d678e97U, 0x73885f847770a778U,
  0x699f7f9d819a9473U, 0x75737a95829d9595U, 0x9c797a7a8273658cU, 0x86a4877b93848d9cU,
  0x609074866b825f7eU, 0x9e8b88798c989186U, 0x87896f7094697685U, 0x6c8d75747a927593U,
  0x8c8168707b7b677dU, 0x6c88887d7c769b92U, 0x7d6e8e827d918b95U, 0x6b758982946c9674U,
  0x777f8f768c8b7f86U, 0x757e93708b908784U, 0x6f7e708b718c887eU, 0x8b8c779b9b96907cU,
  0x7486708c9b87796bU, 0x9c7c7e8d736a6c72U, 0x887a704c7a789b9aU, 0xae7c80998e7a537fU,
  0x7c7c818c8a8d886fU, 0x98948e7d72387b8bU, 0x76828f728146416eU, 0x8f819f9563957289U,
  0x69bf6982988e6c78U, 0x99776d86749e818bU, 0xa278736f6b909a7fU, 0x9d9a8e9875c2568bU,
  0x7a778d8dae6e9773U, 0x90929286714e8f6bU, 0xd974718978955e7cU, 0x7c9a8c977e647a82U,
  0x86968080d49a8e89U, 0x5997669281a67596U, 0x8b8e867c90989a94U, 0x6b797f717b757f6bU,
  0x726d987b7f719c7fU, 0x6b947e9c708d8772U, 0x90778d6189a3737fU, 0x6daab68a939a7c7bU,
  0x909a8ea191958886U, 0x9cb37fa0817b737cU, 0x5d7c709eb489bb7eU, 0x686f967a75718f6cU,
  0x82797f987f80838cU, 0x9d6f7d8c90738d97U, 0x9a74927f8d6e6e7cU, 0x697b76917f7b9294U,
  0x8f967c6e96766c93U, 0x6e956d6a91809787U, 0x919d92867372898cU, 0x778c749c6a6d9796U,
  0x7899817577886e6eU, 0x867c69759a7f9483U, 0x8a6e829979868a75U, 0x77917f80897b7195U,
  0x93829791997e9867U, 0x6a797e8672817596U, 0x277b899872706653U, 0x92938198799d7998U,
  0x982a99787178ad86U, 0x80997c6f6481918fU, 0x8b008273a580437dU, 0x96917a939e7a7b77U,
  0x828b5a8e81999471U, 0xa97e6dc585778c97U, 0x966a839d909b4877U, 0xb47494758c798979U,
  0x938c774697767e7fU, 0x7c815a9d9582659eU, 0x77718b8c7a7a7385U, 0x8e747f91a988968cU,
  0x80949377a3828e5dU, 0xa5766f9997828195U, 0x69869a7b906c8d7fU, 0x46a9757f818a8378U,
  0x767c97789a9b8872U, 0x83898d647e67917bU, 0x6d81a68a6b7d7c8bU, 0x4e937d798d576f77U,
  0x6b708172a57c7791U, 0x977c6d79648a9d93U, 0x829794715195899bU, 0x787a5f727a81915dU,
  0x749a98a08b787f75U, 0x93726f6d7a6a778fU, 0x76818670896f3e95U, 0x918c8799966d239bU,
  0x829499a6759f9b73U, 0x9d6c7b8780517098U, 0xa48095478e907899U, 0x6d7a6f9187813a83U,
  0xb38789777d65a671U, 0x829490b979868095U, 0x587881839e99a49fU, 0x82949c6580a57b8eU,
  0xa380758085a98679U, 0x778a6e7687a39091U, 0x7b99716ea375a381U, 0x82a497856f7fa66bU,
  0x835f72767d945673U, 0x9b89858e796f878cU, 0x7d706c8787623098U, 0x98a39c8159848677U,
  0x539e7d8d7984809eU, 0x678a8a66727963a0U, 0x7e7e72726b929980U, 0x6108888e89919487U,
  0xb99596e91279981U, 0x996386876c7a7f6cU, 0x826d8e978c978475U, 0x8f6b888478853b50U,
  0x8b297394905b7992U, 0x719a9a66ad6a8877U, 0x869a9a6c5a9b9893U, 0x8d7385249d796c85U,
  0x714997608e7f768fU, 0x7f7e9d6a7c7eb692U, 0x86997d7f507c746eU, 0x7a6b8171788abe83U,
  0x6ca17ea0827d8996U, 0x867394754b997894U, 0x74799e8f7a9a5a84U, 0x6b9d7e9e93948f99U,
  0xa17b8b8a88709582U, 0xc3a4719393866f78U, 0x81909294917c7f7dU, 0x8f87908074a8a880U,
  0x7365768c72838d85U, 0xbb9570747f6e959eU, 0x7d98735d50758a8cU, 0x6f94bca181939592U,
  0x7782729d7c79838fU, 0x7da89c93978e97a3U, 0x6d916e7d73807e6bU, 0x8b9aa19d6b71876bU,
  0x787481898175868bU, 0x7e93818d8f8f7b8cU, 0x91968b7b98916d8aU, 0x8399a379779a8378U,
  0x8e869db192798d68U, 0x8891819a6c97729bU, 0x758caa9e9881b18cU, 0x87796e7355a17c5dU,
  0x6d7d8578379a656dU, 0x80818c6a93838071U, 0x6c899d87ad416883U, 0x879dab87604a9182U,
  0x748c9f807a877c92U, 0x678192a46a783d6fU, 0x313c76807f9d3b92U, 0x8cb49c74678b987eU,
  0x827392948372b17fU, 0x9c5c8b7d7a8889a9U, 0x7e8ef18d997e8b85U, 0x9a7e835e6e8d9a81U,
  0x9285dc737973738cU, 0xb5af917c448f6d9cU, 0x958f8b8db18d4c8cU, 0x7f875f8b91838f91U,
  0x8c8e8c9585656c83U, 0x9b72758c5a817595U, 0x939f95738a747163U, 0x739a888f54b76872U,
  0x7386b26ba9938184U, 0x80757a8a97938484U, 0x898d799678968c74U, 0x606b9295c49cab92U,
  0x7792989469849668U, 0x6099719480767c96U, 0x639a9b9e667b918fU, 0x8c9d8c80bdb8a69aU,
  0x7c71886e86897c99U, 0x9194978d91657e7eU, 0x7999866e8c939770U, 0x768476787d77988fU,
  0x797a9071a6878d86U, 0x707a87938362a18aU, 0x7f87946d62886c89U, 0x5b907a897d726c7dU,
  0x9a8c798d957a8c79U, 0x78899f826f7c726eU, 0x8a8c907d7b8d9791U, 0x5d92898d77a4859dU,
  0x92ab7a909e8d7179U, 0x75805d9282989197U, 0x7c7e749d8270557bU, 0x85ad717b807f9396U,
  0x8c9a7065b67a786fU, 0x9d7fb773918c909cU, 0x937692868b6c6b6cU, 0x76c67c907d667f88U,
  0x63848fada4837d8bU, 0x84829d7c93858567U, 0x899a958e8d74889bU, 0x9d8b91867ba8807cU,
  0x6f89968dd1708d95U, 0x8c7e8a8286958d98U, 0x979a9b9f70717c7bU, 0x93659799798b8475U,
  0x637b8c7290a3546fU, 0x86677b8f75978a60U, 0x899a769e87779682U, 0x9c8d8b7577708dcaU,
  0x5a70628195967a74U, 0x8d749a906f706478U, 0x8d7f4b7aa36e706bU, 0x6674a076989d7984U,
  0x6e6c89848d898e6dU, 0x8c6d6d8e79956d88U, 0x977982837e8f9176U, 0x6f8c946c98868c8cU,
  0x7b7e796f827a9998U, 0x7f938d816a46859cU, 0x8f86669c67757873U, 0x9d927b5a9172818eU,
  0x93b26d879e64a39eU, 0x6f738d9b818f7b9cU, 0x648498a4777b6d7bU, 0xa3768f77697c7663U,
  0x888f97817d709271U, 0x7e707572888f6e82U, 0x80a1758d6f8c88abU, 0x7f7b459d9a967b6aU,
  0x929085a37a91796fU, 0x84827f8d7b877b7dU, 0x84b87481856f7793U, 0x798b977f8ca19778U,
  0x9d92739386899d64U, 0x79809188936bb46cU, 0x978c816bb2958987U, 0x9c71b2759389937eU,
  0x8f668691749c846eU, 0x957c8a888a7a827cU, 0x859996668c9c9b81U, 0x9b7297727f798b6fU,
  0x9b78949479779b67U, 0x73207a73a1698293U, 0x8e918b627ca58880U, 0x9d9f847b6ea5717dU,
  0x7a7e877f777c9299U, 0x748e96a088945f9bU, 0x5c6d86907672a39dU, 0x778173a080709d68U,
  0x6a849a8376926680U, 0xb08e81788d55787bU, 0x80939076b1827181U, 0x5a7d6b6a805ac29dU,
  0x6a9aa4769489ab8aU, 0x889e6873778f6b79U, 0x879d7c917287d076U, 0x8c886e7858998063U,
  0x7580969d6b76a06bU, 0x95a483707d9071b0U, 0x9f6f707f76537c87U, 0x5d6d707a6986835dU,
  0x808d607ea66b7a7dU, 0x72bc647e73869791U, 0x6fa3a76c8175706dU, 0x7d779d859c807197U,
  0xa2878f907874676fU, 0x8c9d8978828e4a61U, 0x7397247781897979U, 0xa46e8081a4337a8dU,
  0x958aa19d7e7a979aU, 0x73986d53878b9d8fU, 0x7467918a8f8bad95U, 0x8f93987f74918c6dU,
  0x3e78d4a170976f70U, 0xbe24dc85be9489a5U, 0xbe9ef9e43dfe06fcU, 0x3db631f73e1797dcU,
  0xbde27e653e169399U, 0x3d29a4c7be94bd18U, 0xbc63ebf33dce00fbU, 0x3db743b4be8701feU,
  0x3d1dc75a3dcef898U, 0x3e733c32be66e074U, 0x3e049d25be2366b6U, 0xbe57e084bc852e16U,
  0xbccc2173be977a97U, 0xbd7615d63e33ee16U, 0xbe63dac1be82db05U, 0x3e8a59ffbd28f6b6U,
  0xbd0f5a673d394a38U, 0xbe58250cbd3a5ff7U, 0xbe22dd8dbdfe35ceU, 0x3dd422663d89168eU,
  0x3e8e46983e1eda42U, 0xbeee8829beabef68U, 0xbe86da9e3e5c0868U, 0x3e05c7843dc288e2U,
  0xbc9ea06e3e6f3b8bU, 0xbfc33bfd3d94445cU, 0xbfc02753bfc1c9c3U, 0xbfbd7315bfbee54fU,
  0xbfba8ea1bfbc00dbU, 0xbfb7aa2ebfb91c67U, 0xbfb4c5babfb637f4U, 0xbfb1e146bfb35380U,
  0xbfaefcd2bfb06f0cU, 0xbfac185ebfad8a98U, 0xbfa933eabfaaa624U, 0xbfa64f76bfa7c1b0U,
  0xbfa36b02bfa4dd3cU, 0xbfa0868fbfa1f8c9U, 0xbf9da21bbf9f1455U, 0xbf9abda7bf9c2fe1U,
  0xbf98856fbf994b6dU, 0xbf94f4bfbf9666f9U, 0xbf92104bbf936b9cU, 0xbf8f2bd7bf909e11U,
  0xbf8b983abf8db99dU, 0xbf8933d0bf8ad52aU, 0xbf867e7cbf87f0b6U, 0xbf839a08bf850c42U,
  0xbf80b594bf81ce82U, 0xbf7ba240bf7e86b4U, 0xbf75d959bf78bdcdU, 0xbf701071bf72f4e5U,
  0xbf6a4789bf6d2bfdU, 0xbf6431f7bf66ca7aU, 0xbf5eb5babf619a2eU, 0xbf58ecd2bf5cc671U,
  0xbf54411bbf550969U, 0xbf4cf284bf4fcfe7U, 0xbf47921bbf4a21c0U, 0xbf41c933bf44a957U,
  0xbf3c19a0bf3dc67bU, 0xbf363764bf3a8198U, 0xbf30fc38bf3352f0U, 0xbf2a8220bf2d8a08U,
  0xbf23d7e8bf28ec20U, 0xbf1e17eabf21466aU, 0xbf19964dbf1b41b5U, 0xbf131a6abf17d420U,
  0xbf0ec326bf109d81U, 0xbf07f026bf09d79bU, 0xbf01ca58bf03dc24U, 0xbef96ac4befd933eU,
  0xbeedb311bef19b09U, 0xbee20fdbbee96703U, 0xbed5c110bedd1501U, 0xbeca00ccbecf27ffU,
  0xbebeb3a0bec3fbf5U, 0xbeb31c11beb98238U, 0xbea7999bbeae3376U, 0xbe9c63f2bea259f9U,
  0xbe8fad19be94bb37U, 0xbe853e0ebe8a01ceU, 0xbe74beffbe7f3925U, 0xbe59eb4bbe65b13fU,
  0xbe4348bfbe508127U, 0xbe2e59debe3746f9U, 0xbe15161ebe2142beU, 0xbdfc9da3be0b26e5U,
  0xbdcb67ccbde3a92bU, 0xbda09afebdb46323U, 0xbd6c1542bd8e9ad2U, 0xbd0b27f9bd3a116fU,
  0xbc3f46d9bcb83c37U, 0x3c3a2b7b3b370c05U, 0x3d0578643cafa187U, 0x3d5e400c3d31ca6dU,
  0x3d9e8b683d89501fU, 0x3dcb33263db600d7U, 0x3df361d13de0d027U, 0x3e1718ba3e088ce0U,
  0x3e2e4a033e228b74U, 0x3e4535573e37c46eU, 0x3e5df96c3e4e41ffU, 0x3e7294e83e67c28eU,
  0x3e84c1c63e7ccd1eU, 0x3e91b69a3e8ad9cfU, 0x3e9bd4bf3e9625bdU, 0x3ea6fc283ea0cea6U,
  0x3eb29fcf3ead89b2U, 0x3ebf0b213eb87596U, 0x3ec9ff693ec54dbeU, 0x3ed668ee3ecf49c0U,
  0x3ee2e4093edcd9edU, 0x3eed09b93ee7f169U, 0x3ef9f9ca3ef0df9fU, 0x3f028ab93efcd854U,
  0x3f0711ea3f048784U, 0x3f0dc8503f0b6317U, 0x3f1253e13f109fc1U, 0x3f194d1d3f169922U,
  0x3f1f16053f1ce3ebU, 0x3f25228d3f21a172U, 0x3f29b56e3f27c360U, 0x3f3070bc3f2d8c48U,
  0x3f3639a43f33ef07U, 0x3f3acf863f391e17U, 0x3f40a1b83f3ee6ffU, 0x3f47945b3f44afe7U,
  0x3f4d5d433f4a78cfU, 0x3f53262a3f5163a0U, 0x3f58ef123f54b515U, 0x3f5eb7fa3f5bd386U,
  0x3f6480e13f619c6eU, 0x3f6a49c93f676555U, 0x3f70ed4d3f6d2e3dU, 0x3f75db993f71d550U,
  0x3f7b976e3f78c00dU, 0x3f8085a83f7e88f4U, 0x3f839b283f8228eeU, 0x3f867f9c3f850d62U,
  0x3f8964103f87f1d6U, 0x3f8c48843f8a45b3U, 0x3f8f2cf73f8dbabdU, 0x3f92116b3f909f31U,
  0x3f94f5df3f9383a5U, 0x3f97da533f95c146U, 0x3f9abec73f994c8dU, 0x3f9da33b3f9c3101U,
  0x3fa087af3f9f1575U, 0x3fa36c223fa1f9e9U, 0x3fa650963fa4de5cU, 0x3fa9350a3fa7c2d0U,
  0x3fac197e3faaa744U, 0x804f93933fad8bb8U, 0x648c7762927c7054U, 0x5b61868167a7808eU,
  0xa3708f7967799b97U, 0x60779780b18b9365U, 0x8c8e9c849ca0ac8eU, 0x80966c289ca15c96U,
  0xa9ada287b7829364U, 0x91869d43808c9f85U, 0xa24c98a38e9f51c8U, 0x617eab9f886c8e93U,
  0xde958176527e6375U, 0x655c9a819065789eU, 0x937cac8f9db69c6eU, 0xaaa4a1817c6c7987U,
  0x75959589bf828689U, 0x938594b4929c6678U, 0x7774979d8f9b7ea0U, 0x417575807c855e92U,
  0x6ea68d4a94707f8bU, 0xa4ac949a3b748c68U, 0x726f5a826aa3ac96U, 0x80857ea071a36368U,
  0x74797a93029e4e53U, 0x78a57e26799a9572U, 0x9c714f7c6fc57ca3U, 0x9a9d70998487ba88U,
  0x52ef6d90975a9383U, 0x979785728f90737aU, 0x858c697a7f4e708aU, 0xa16de07c99ac809dU,
  0x837e8d8aa1817064U, 0x8fab928c8a9e7870U, 0x669ba54782927e8fU, 0x8d888e70939f87dbU,
  0x7d889a747f79778fU, 0xa67ca398668d9175U, 0x9093857f90997f82U, 0x6b98828a949fa278U,
  0x74ca8b998a7c916dU, 0x9da18288932daa91U, 0x76bd879b9d7394a1U, 0x85879798a697b284U,
  0x74aca5708da64da0U, 0x649d788c9ca79480U, 0x85877c9595707585U, 0x7293af409f9593b0U,
  0x74938d9283b08c72U, 0xa08caa98ad8364c0U, 0x997b74a165a4798cU, 0x76778a88917c6d9fU,
  0x7b8b82736d867774U, 0x7a739f7c8a759488U, 0x6e778f847698827bU, 0x9e80718e85736f7bU,
  0x7d87959397849673U, 0x679c7f82907b797fU, 0x92988a81b59b9f67U, 0x8e9fa56c7c739b9bU,
  0x85639b8d92a96ac2U, 0x628da74e8c757b84U, 0xda5a848c648e7686U, 0x8960787e78898e71U,
  0x8c828a726c6d8072U, 0x986f9b9191889b80U, 0x7d6e98837a997a73U, 0x8f9c798e90967d92U,
  0x88846d89716c7571U, 0x6d8a836d7d6e838dU, 0xc28a8b8f5e9c8497U, 0x836c79946b9683a4U,
  0x7e976bff75918b66U, 0xa25a737c706a85a3U, 0x6f9c718a759ca361U, 0xa28d9b7fa837a284U,
  0x87aea19b9f578e5cU, 0x788a9b867e89849aU, 0xaf3fa9747ed19d9cU, 0x7e769e8d829b7271U,
  0x8a998b818a987d9eU, 0x8e9e378b9882ab92U, 0x6b8d898473a98d71U, 0x87ae7f7aa77f83adU,
  0x98959a52966e7e85U, 0x9d4e8e8873a492e7U, 0x8c6daf9a7874706dU, 0xcf7ba19f60947184U,
  0x7d697d7772748895U, 0x945f688a779eaa99U, 0x598a8aaf6d999d72U, 0x3e868296b838ac96U,
  0x9362a0b796757283U, 0x9e861e9359b0b495U, 0x8a8f5d8578844a63U, 0x7f887b85687f737cU,
  0x87716f77918d7a6bU, 0x95926d939089769fU, 0x776f6e8b97916999U, 0x8676969772926c7eU,
  0x8288726d958d7680U, 0x9daaa78a6d9b8f7eU, 0x7f7aa6777e98818cU, 0xac2190749abba68eU,
  0xa27d968695a0899bU, 0x858a9a8b5b909d96U, 0x6aa8009d76a0839cU, 0xb29498966c79937cU,
  0xa367736c7e917f8bU, 0xb17561cf9372926fU, 0xabaf909e778c973dU, 0x9d6f59af9fb19e98U,
  0x72919075a692958fU, 0xa56777a090949797U, 0x7a56a268a9ab6283U, 0x93a445736d8c9385U,
  0x977e777e88e79575U, 0x5c4e929c7172b4a0U, 0xa09d655075599882U, 0x8b968547a869a1b3U,
  0x669a6c94b58f53bdU, 0x9895a4778e688a85U, 0x8c89933fae7766afU, 0x8598908c87a98999U,
  0xa8709d7ba17e7fa9U, 0x75959b954590979cU, 0x3e44599184959596U, 0xbdecc07d3e895066U,
  0x3dbd3ff1bd697493U, 0xbd85b1fb3d8cf6e4U, 0xbc219116bd4c9c3aU, 0xbd2c551d3e19fda5U,
  0xbd8208573e38a27bU, 0xbe13c55c3c3bd491U, 0xbe5b4914bdd5aa4bU, 0x3e0df236bd2dad96U,
  0x3f4f2890bd80658dU, 0x3f6e689fbf4d03e4U, 0xbf28d325bf56eb5fU, 0xbdf36519bf010870U,
  0xbdfb0600be6bd232U, 0xbf02c002be8d4b74U, 0x3ef0cc10bf939042U, 0x3f992454bf546e74U,
  0x3f1940a3bdc768a7U, 0xbfaf36763eab7ae5U, 0xbf579289be0d661cU, 0xbf8216553f396253U,
  0x3e8db8d53f883741U, 0xbf099eba3e6e9da8U, 0xbefba866bf25ca6aU, 0xbf03ce6f3f1b274cU,
  0x3dcf65f53f3ab034U, 0xbf0b6ac93e1f19f1U, 0xbda66c47be1a8108U, 0x3f888ad1beede70aU,
  0xbd12f663bf02adefU, 0x3d12f694U,
};


ai_handle g_network_weights_table[1 + 2] = {
  AI_HANDLE_PTR(AI_MAGIC_MARKER),
  AI_HANDLE_PTR(s_network_weights_array_u64),
  AI_HANDLE_PTR(AI_MAGIC_MARKER),
};

